TRT-8202-EntropyCalibration2
input0: 3caa54fc
input.4: 3cc5e850
379: 3cc76150
input.8: 3cc76150
input.16: 3c5c363c
383: 3c25f672
input.24: 3bbc9ca5
386: 3c6c124c
631: 3bba19f3
634: 3c8479dd
input.36: 3c90d522
392: 3c824fd7
input.44: 3c33225d
395: 3c3befc3
input.52: 3c6dc8a8
398: 3c7ddded
643: 3bd8bc86
input.60: 3c067f36
402: 3c067f36
input.68: 3be57b2c
405: 3bfce900
input.76: 3c383c79
408: 3c44eef4
652: 3bbafdb2
input.84: 3c242dc9
412: 3c242dc9
input.92: 3c26d155
415: 3c257ae3
input.100: 3bf8cc17
418: 3bf8cc17
661: 3be61dbb
664: 3c67a499
input.112: 3c84a3d8
424: 3c928c30
input.120: 3bf5bc31
427: 3bfdd7c5
input.128: 3c60239f
430: 3c688308
673: 3c437ce4
input.136: 3c471637
434: 3c1d4118
input.144: 3c1d80e3
437: 3c2a909e
input.152: 3c3aeda7
440: 3c1975e1
682: 3c0162ed
input.160: 3c3a0139
444: 3c3cb4b2
input.168: 3bc11d46
447: 3bb7ba2f
input.176: 3c00f2fd
450: 3be92a9a
691: 3bf814b2
input.184: 3c25402f
454: 3c25402f
input.192: 3c54dbfa
457: 3c253386
input.200: 3c01e16b
460: 3be6a44c
700: 3c0adb97
703: 3c14a2c1
input.212: 3c47722d
466: 3c2dec9b
input.220: 3bd3e295
469: 3bde6a1f
input.228: 3c0a3f5c
472: 3bd5ff8a
712: 3bdcd683
input.236: 3c023c23
476: 3c1384ab
input.244: 3bbbe295
479: 3bbcda59
input.252: 3bd076aa
482: 3bb24985
721: 3ba9afad
input.260: 3bff268b
486: 3bff268b
input.268: 3bec9260
489: 3bab5511
input.276: 3bb96b1c
492: 3b89af9a
730: 3b8ae53a
input.284: 3be449da
496: 3bfda1c2
input.292: 3bdb6ab0
499: 3ba21df0
input.300: 3be04596
502: 3b970532
739: 3b58a75c
input.308: 3be1d8d7
506: 3bea12eb
input.316: 3bda0d34
509: 3bc5bef7
input.324: 3c20e563
512: 3b87221a
748: 3b6f0331
input.332: 3bdaae5e
516: 3bf5835e
input.340: 3bb4f0e8
519: 3bb331e6
input.348: 3ba69303
522: 3b9b8874
757: 3c0dc614
760: 3c111c32
input.360: 3c630070
528: 3c642c60
input.368: 3bc0bc02
531: 3bac076c
input.376: 3ba50d9c
534: 3b85efb8
769: 3bc66060
input.384: 3c4a8c8c
538: 3c62b9a4
input.392: 3bbbdce3
541: 3b825bb6
input.400: 3b87a143
544: 3b5ead0d
778: 3c09e306
input.408: 3c78b18b
548: 3c78b18b
input.416: 3c3680b3
551: 3c2dfb30
input.424: 3c4740c2
554: 3c2dfb30
input.432: 3c390ffa
557: 3c2dfb30
input.440: 3c262af0
560: 3c2dfb30
input.444: 3bfaa04e
input.452: 3c16a2f4
x: 3c16a2f4
583: 3c2dfb30
input.456: 3c2dfb30
input.464: 3c2dffda
input.468: 3c387d6a
input.476: 3c8bd2f7
input.480: 3c8c17ea
x.3: 3deb3d22
dense_out: 3dea2cb9
input.488: 3c858709
input.492: 3c8aada0
x.7: 3dc9bcf3
621: 3dc905b1
